unsigned char model_data[] = {
  0x1c, 0x00, 0x00, 0x00, 0x54, 0x46, 0x4c, 0x33, 0x14, 0x00, 0x20, 0x00, 0x1c, 0x00, 0x18, 0x00, 0x14, 0x00, 0x10, 0x00, 0x0c, 0x00, 0x00, 0x00, 0x08, 0x00, 0x04, 0x00, 0x14, 0x00, 0x00, 0x00, 0x1c, 0x00, 0x00, 0x00, 0xa0, 0x00, 0x00, 0x00, 0xf8, 0x00, 0x00, 0x00, 0x40, 0x0f, 0x00, 0x00, 0x50, 0x0f, 0x00, 0x00, 0xf4, 0x1c, 0x00, 0x00, 0x03, 0x00, 0x00, 0x00, 0x01, 0x00, 0x00, 0x00, 0x10, 0x00, 0x00, 0x00, 0x00, 0x00, 0x0a, 0x00, 0x10, 0x00, 0x0c, 0x00, 0x08, 0x00, 0x04, 0x00, 0x0a, 0x00, 0x00, 0x00, 0x0c, 0x00, 0x00, 0x00, 0x1c, 0x00, 0x00, 0x00, 0x38, 0x00, 0x00, 0x00, 0x0f, 0x00, 0x00, 0x00, 0x73, 0x65, 0x72, 0x76, 0x69, 0x6e, 0x67, 0x5f, 0x64, 0x65, 0x66, 0x61, 0x75, 0x6c, 0x74, 0x00, 0x01, 0x00, 0x00, 0x00, 0x04, 0x00, 0x00, 0x00, 0x88, 0xff, 0xff, 0xff, 0x14, 0x00, 0x00, 0x00, 0x04, 0x00, 0x00, 0x00, 0x07, 0x00, 0x00, 0x00, 0x64, 0x65, 0x6e, 0x73, 0x65, 0x5f, 0x33, 0x00, 0x01, 0x00, 0x00, 0x00, 0x04, 0x00, 0x00, 0x00, 0x9e, 0xf0, 0xff, 0xff, 0x04, 0x00, 0x00, 0x00, 0x18, 0x00, 0x00, 0x00, 0x73, 0x65, 0x70, 0x61, 0x72, 0x61, 0x62, 0x6c, 0x65, 0x5f, 0x63, 0x6f, 0x6e, 0x76, 0x32, 0x64, 0x5f, 0x32, 0x5f, 0x69, 0x6e, 0x70, 0x75, 0x74, 0x00, 0x00, 0x00, 0x00, 0x02, 0x00, 0x00, 0x00, 0x34, 0x00, 0x00, 0x00, 0x04, 0x00, 0x00, 0x00, 0xdc, 0xff, 0xff, 0xff, 0x17, 0x00, 0x00, 0x00, 0x04, 0x00, 0x00, 0x00, 0x13, 0x00, 0x00, 0x00, 0x43, 0x4f, 0x4e, 0x56, 0x45, 0x52, 0x53, 0x49, 0x4f, 0x4e, 0x5f, 0x4d, 0x45, 0x54, 0x41, 0x44, 0x41, 0x54, 0x41, 0x00, 0x08, 0x00, 0x0c, 0x00, 0x08, 0x00, 0x04, 0x00, 0x08, 0x00, 0x00, 0x00, 0x16, 0x00, 0x00, 0x00, 0x04, 0x00, 0x00, 0x00, 0x13, 0x00, 0x00, 0x00, 0x6d, 0x69, 0x6e, 0x5f, 0x72, 0x75, 0x6e, 0x74, 0x69, 0x6d, 0x65, 0x5f, 0x76, 0x65, 0x72, 0x73, 0x69, 0x6f, 0x6e, 0x00, 0x18, 0x00, 0x00, 0x00, 0x44, 0x0e, 0x00, 0x00, 0x3c, 0x0e, 0x00, 0x00, 0xec, 0x0d, 0x00, 0x00, 0x5c, 0x0d, 0x00, 0x00, 0x48, 0x0d, 0x00, 0x00, 0x14, 0x0d, 0x00, 0x00, 0xc4, 0x0c, 0x00, 0x00, 0x74, 0x0c, 0x00, 0x00, 0x24, 0x0a, 0x00, 0x00, 0x14, 0x02, 0x00, 0x00, 0xfc, 0x01, 0x00, 0x00, 0xe4, 0x01, 0x00, 0x00, 0xd4, 0x00, 0x00, 0x00, 0xcc, 0x00, 0x00, 0x00, 0xc4, 0x00, 0x00, 0x00, 0xbc, 0x00, 0x00, 0x00, 0xb4, 0x00, 0x00, 0x00, 0xac, 0x00, 0x00, 0x00, 0xa4, 0x00, 0x00, 0x00, 0x9c, 0x00, 0x00, 0x00, 0x94, 0x00, 0x00, 0x00, 0x8c, 0x00, 0x00, 0x00, 0x6c, 0x00, 0x00, 0x00, 0x04, 0x00, 0x00, 0x00, 0x86, 0xf1, 0xff, 0xff, 0x04, 0x00, 0x00, 0x00, 0x58, 0x00, 0x00, 0x00, 0x0c, 0x00, 0x00, 0x00, 0x08, 0x00, 0x0e, 0x00, 0x08, 0x00, 0x04, 0x00, 0x08, 0x00, 0x00, 0x00, 0x10, 0x00, 0x00, 0x00, 0x28, 0x00, 0x00, 0x00, 0x00, 0x00, 0x06, 0x00, 0x08, 0x00, 0x04, 0x00, 0x06, 0x00, 0x00, 0x00, 0x04, 0x00, 0x00, 0x00, 0x01, 0x00, 0x00, 0x00, 0xea, 0x03, 0x00, 0x00, 0x00, 0x00, 0x0a, 0x00, 0x10, 0x00, 0x0c, 0x00, 0x08, 0x00, 0x04, 0x00, 0x0a, 0x00, 0x00, 0x00, 0x02, 0x00, 0x00, 0x00, 0x02, 0x00, 0x00, 0x00, 0x04, 0x00, 0x00, 0x00, 0x06, 0x00, 0x00, 0x00, 0x32, 0x2e, 0x31, 0x30, 0x2e, 0x31, 0x00, 0x00, 0xea, 0xf1, 0xff, 0xff, 0x04, 0x00, 0x00, 0x00, 0x10, 0x00, 0x00, 0x00, 0x31, 0x2e, 0x36, 0x2e, 0x30, 0x00, 0x00, 0x00, 0x00, 0x00, 0x00, 0x00, 0x00, 0x00, 0x00, 0x00, 0x28, 0xe5, 0xff, 0xff, 0x2c, 0xe5, 0xff, 0xff, 0x30, 0xe5, 0xff, 0xff, 0x34, 0xe5, 0xff, 0xff, 0x38, 0xe5, 0xff, 0xff, 0x3c, 0xe5, 0xff, 0xff, 0x40, 0xe5, 0xff, 0xff, 0x44, 0xe5, 0xff, 0xff, 0x48, 0xe5, 0xff, 0xff, 0x2a, 0xf2, 0xff, 0xff, 0x04, 0x00, 0x00, 0x00, 0x00, 0x01, 0x00, 0x00, 0xbb, 0xc9, 0xc1, 0x3e, 0xd1, 0xbe, 0x60, 0xbe, 0xc9, 0xe8, 0xde, 0x3e, 0xe8, 0x4c, 0xce, 0x3e, 0x4b, 0xba, 0x67, 0x3e, 0xca, 0xce, 0xf0, 0x3d, 0xa2, 0x2c, 0xbd, 0xbe, 0x17, 0x48, 0x40, 0x3e, 0xb6, 0xbd, 0x81, 0x3e, 0x4b, 0x39, 0x00, 0x3f, 0x52, 0x07, 0xfc, 0x3e, 0x79, 0xa6, 0x9f, 0x3e, 0x0c, 0xa1, 0x5d, 0x3e, 0xe4, 0x30, 0x28, 0x3e, 0x02, 0x61, 0xcc, 0x3e, 0xb3, 0x9f, 0xb2, 0xbd, 0xaa, 0xf4, 0xc4, 0x3e, 0x8c, 0x4f, 0x96, 0xbd, 0xcf, 0x22, 0xab, 0xbd, 0x37, 0x32, 0xc0, 0x3d, 0xe8, 0x4b, 0x0d, 0xbe, 0x70, 0x31, 0x5d, 0xbe, 0x88, 0xb7, 0xae, 0x3e, 0x93, 0x37, 0xdb, 0x3e, 0x84, 0x28, 0x92, 0x3e, 0x38, 0xc1, 0x00, 0xbe, 0xfb, 0x29, 0x95, 0xbe, 0x7b, 0xee, 0x0c, 0xbe, 0xb9, 0xa0, 0xcb, 0x3e, 0x90, 0x97, 0xc4, 0x3e, 0x62, 0xfc, 0xc0, 0xbe, 0xaf, 0x4b, 0x96, 0xbe, 0x99, 0x1b, 0x1a, 0x3d, 0x36, 0x2e, 0x58, 0x3d, 0xdc, 0x9b, 0xa6, 0xbd, 0xa4, 0x66, 0x39, 0xbe, 0xf2, 0x6b, 0xc2, 0xbd, 0x32, 0xfc, 0x1e, 0xbe, 0x67, 0x7e, 0x70, 0x3e, 0x59, 0x72, 0xe0, 0x3d, 0x80, 0x13, 0xec, 0x3c, 0xed, 0x34, 0x15, 0xbe, 0x94, 0xac, 0x84, 0x3e, 0x86, 0x30, 0x56, 0xbe, 0x4d, 0x77, 0x2f, 0xbe, 0x9c, 0x28, 0xbf, 0x3e, 0x38, 0x38, 0x8e, 0x3e, 0x13, 0x64, 0xd7, 0x3e, 0x44, 0x72, 0x00, 0xbd, 0x7f, 0x4c, 0xbc, 0xbe, 0x33, 0xed, 0x98, 0xbe, 0xf6, 0x93, 0xe9, 0xbe, 0xf7, 0x07, 0xf3, 0xbe, 0x91, 0xe4, 0x82, 0xbe, 0x48, 0xa8, 0x47, 0x3e, 0x30, 0x7f, 0xbe, 0xbd, 0x17, 0xb0, 0x98, 0x3e, 0xf5, 0x26, 0x87, 0xbe, 0x8a, 0x4a, 0x4b, 0xbe, 0xdc, 0x24, 0xc1, 0x3e, 0x57, 0x7b, 0x81, 0x3e, 0xbd, 0x79, 0x86, 0xbd, 0x0a, 0xb7, 0xa1, 0xbe, 0x62, 0xbc, 0x7b, 0xbe, 0x36, 0xf3, 0xff, 0xff, 0x04, 0x00, 0x00, 0x00, 0x08, 0x00, 0x00, 0x00, 0xcf, 0xc7, 0x8c, 0x3d, 0xd0, 0xc7, 0x8c, 0xbd, 0x4a, 0xf3, 0xff, 0xff, 0x04, 0x00, 0x00, 0x00, 0x08, 0x00, 0x00, 0x00, 0x01, 0x00, 0x00, 0x00, 0x02, 0x00, 0x00, 0x00, 0x5e, 0xf3, 0xff, 0xff, 0x04, 0x00, 0x00, 0x00, 0x00, 0x08, 0x00, 0x00, 0xb5, 0x77, 0x95, 0x3d, 0xc0, 0xd5, 0x91, 0x3c, 0xb9, 0xdf, 0xc2, 0x3c, 0x3e, 0x10, 0x34, 0xbe, 0x40, 0x25, 0x39, 0x3d, 0xce, 0x71, 0x1b, 0x3e, 0x5b, 0x14, 0xd6, 0x3d, 0x8e, 0x0c, 0xa9, 0xbe, 0x5a, 0x14, 0x3c, 0xbd, 0x1c, 0xeb, 0x40, 0xbe, 0xcf, 0xbd, 0x15, 0xbe, 0x62, 0xf3, 0xde, 0xbc, 0x41, 0x60, 0xf7, 0x3e, 0x0e, 0xcf, 0x1d, 0xbd, 0xb7, 0x1f, 0x7e, 0xbe, 0x5b, 0x3e, 0x72, 0x3e, 0x7e, 0x5b, 0xba, 0x3e, 0x1b, 0xe9, 0xb3, 0xbd, 0x8d, 0xb3, 0xcd, 0x3b, 0x0e, 0x0f, 0x13, 0xbe, 0x12, 0x82, 0x69, 0x3c, 0x41, 0xa0, 0xc1, 0x3e, 0x13, 0x41, 0x2a, 0x3e, 0x98, 0x95, 0x81, 0x3e, 0x5a, 0xdc, 0x9d, 0xbe, 0x53, 0x1d, 0x9e, 0x3e, 0x9c, 0x8d, 0x32, 0x3d, 0x43, 0x23, 0x29, 0x3b, 0x77, 0xc0, 0x04, 0xbc, 0x30, 0x69, 0x90, 0x3e, 0xf3, 0xfc, 0x87, 0x3e, 0xe0, 0x12, 0x07, 0x3e, 0x85, 0x62, 0x13, 0xbe, 0x10, 0x81, 0x7e, 0x3e, 0x17, 0x0c, 0x96, 0xbe, 0x6c, 0x77, 0x31, 0xbe, 0x47, 0x9b, 0x7c, 0x3e, 0xdb, 0x8b, 0xe9, 0x3d, 0x37, 0x8e, 0x88, 0x3c, 0x72, 0x39, 0x0f, 0xbe, 0xed, 0x36, 0x19, 0xbe, 0xe2, 0xd9, 0x83, 0xbe, 0x30, 0x5b, 0xd5, 0xbe, 0x94, 0xa8, 0x98, 0x3e, 0x63, 0xb4, 0x0e, 0x3e, 0x42, 0xf5, 0x5e, 0x3e, 0x05, 0x45, 0x05, 0x3e, 0x15, 0x6d, 0x7e, 0xbd, 0xec, 0x44, 0x45, 0x3d, 0x61, 0x36, 0xd3, 0x3d, 0x30, 0x86, 0xd8, 0x3e, 0xd3, 0xfb, 0xc6, 0xbe, 0x85, 0xd4, 0x1a, 0x3e, 0x80, 0xe7, 0xd8, 0xbc, 0xed, 0x03, 0x86, 0x3e, 0x9e, 0x78, 0x91, 0xbe, 0x15, 0xd0, 0x29, 0xbe, 0x22, 0x00, 0xc1, 0xbc, 0x71, 0x12, 0xb1, 0xbe, 0xf5, 0x52, 0x91, 0x3e, 0x97, 0xa7, 0xed, 0x3e, 0xb8, 0x63, 0x07, 0x3c, 0xb4, 0xf5, 0xfa, 0xbd, 0x2f, 0x41, 0x7e, 0x3e, 0x2f, 0x71, 0x48, 0x3e, 0xee, 0x48, 0x8b, 0x3e, 0x45, 0x9f, 0x31, 0x3e, 0xee, 0xd8, 0xc4, 0xbe, 0x4c, 0x51, 0xb0, 0x3e, 0x38, 0x0d, 0x00, 0xbe, 0x6f, 0x30, 0x60, 0x3e, 0x90, 0x92, 0x2f, 0xbe, 0x8f, 0xc0, 0xbf, 0x3d, 0x97, 0xd7, 0x79, 0xbd, 0x10, 0x4e, 0x58, 0xbe, 0x64, 0xf5, 0x01, 0x3e, 0x26, 0x3c, 0x49, 0x3e, 0xbb, 0x5a, 0x05, 0x3d, 0x57, 0xae, 0x8a, 0xbe, 0xef, 0x30, 0xa9, 0x3e, 0x9c, 0x5c, 0xc8, 0xbe, 0xce, 0x23, 0x58, 0xbe, 0xe9, 0xd7, 0xc1, 0xbb, 0x99, 0xe4, 0x5b, 0x3e, 0x48, 0x85, 0x23, 0x3e, 0xe1, 0xf1, 0x55, 0x3e, 0x2d, 0x3b, 0x68, 0xbd, 0x2d, 0x21, 0x22, 0x3e, 0x21, 0x6a, 0x88, 0xbe, 0x85, 0x7b, 0x9c, 0xbd, 0x66, 0x7d, 0xda, 0xbd, 0xd1, 0x57, 0x2a, 0xbe, 0x8a, 0x46, 0x56, 0x3e, 0x9a, 0x84, 0xb8, 0xbc, 0xb8, 0x26, 0xa2, 0x3e, 0x20, 0xfe, 0xd4, 0x3d, 0x80, 0x29, 0x42, 0x3e, 0x22, 0xa0, 0x84, 0xbe, 0xab, 0x80, 0x01, 0x3d, 0x91, 0x81, 0x8a, 0xbe, 0xf4, 0x6d, 0x22, 0x3e, 0xcd, 0xad, 0xe1, 0x3d, 0x56, 0xb2, 0x2e, 0xbe, 0x46, 0x4c, 0xa3, 0xbd, 0x8e, 0x7d, 0xc1, 0xbb, 0x50, 0xf2, 0x46, 0xbe, 0xed, 0x21, 0x88, 0x3e, 0x1b, 0x15, 0xf2, 0x3d, 0x44, 0xe3, 0x3e, 0x3e, 0x3e, 0xe2, 0xcf, 0x3d, 0xf1, 0x8e, 0x69, 0x3d, 0x50, 0x3d, 0x1e, 0x3e, 0x1d, 0x63, 0xc6, 0xbe, 0x4c, 0x73, 0x01, 0x3e, 0x14, 0x31, 0x82, 0x3e, 0xa9, 0xa1, 0x0f, 0xbe, 0x00, 0xf6, 0x25, 0xbd, 0x83, 0x3b, 0xc6, 0xbe, 0xfc, 0x6b, 0xa2, 0xbe, 0xfe, 0x3b, 0x6d, 0xbe, 0xef, 0xdb, 0x77, 0x3e, 0x97, 0x2d, 0x72, 0x3e, 0x0c, 0x8f, 0x35, 0x3e, 0x14, 0xd8, 0x14, 0x3d, 0x9b, 0x2a, 0x01, 0x3e, 0xc4, 0x2b, 0x1c, 0x3e, 0xc6, 0x05, 0x9a, 0xbe, 0x2f, 0x1e, 0x25, 0x3e, 0x91, 0x2c, 0x47, 0xbe, 0xf5, 0xba, 0x21, 0xbe, 0x1f, 0x51, 0x89, 0xbe, 0x11, 0x1c, 0xfd, 0xbd, 0x3a, 0xab, 0xc4, 0xbd, 0x21, 0xbd, 0x94, 0xbe, 0x9a, 0x69, 0x88, 0x3e, 0xf2, 0x29, 0x64, 0xbe, 0xc9, 0x9e, 0x83, 0x3e, 0x76, 0xde, 0x1a, 0x3e, 0x46, 0xbd, 0x39, 0xbe, 0x93, 0x5e, 0x04, 0xbe, 0x64, 0x5b, 0xa6, 0x3d, 0xb4, 0x45, 0x68, 0x3e, 0xfb, 0x7d, 0x0a, 0xbe, 0x79, 0xea, 0x97, 0x3e, 0x03, 0xb8, 0x04, 0xbe, 0x56, 0xa4, 0x79, 0xbc, 0x1f, 0x70, 0x43, 0x3e, 0x6f, 0x69, 0xb3, 0xbe, 0x04, 0x5b, 0xaf, 0xbc, 0x7e, 0xd0, 0xfa, 0x3d, 0x27, 0x54, 0x8c, 0x3e, 0xa0, 0x89, 0x72, 0x3d, 0x62, 0x7f, 0xfa, 0x3d, 0xb6, 0x57, 0x86, 0xbe, 0xc9, 0x60, 0x7c, 0xbe, 0x08, 0xe5, 0x92, 0x3e, 0x4f, 0x78, 0xbc, 0x3e, 0x01, 0x70, 0xae, 0x3e, 0xa5, 0xce, 0xc1, 0x3d, 0xc8, 0x4b, 0x9c, 0xbd, 0x52, 0x65, 0x2e, 0x3e, 0x54, 0x54, 0xe9, 0x3e, 0xd1, 0xe8, 0x31, 0xbe, 0x8a, 0x1f, 0x84, 0xbd, 0x47, 0xf6, 0xb3, 0x3e, 0xe3, 0x7d, 0x7d, 0x3e, 0xb2, 0xdf, 0x8b, 0x3d, 0xe8, 0x08, 0xd1, 0xbd, 0xc4, 0x08, 0x51, 0xbe, 0x46, 0x0d, 0x2c, 0xbe, 0x5c, 0x8b, 0x85, 0xbe, 0x04, 0x33, 0xab, 0x3c, 0xe1, 0x61, 0xa5, 0xbe, 0x28, 0xb9, 0xe5, 0xbd, 0x62, 0x87, 0xd3, 0x3d, 0x86, 0xd0, 0x8c, 0x3c, 0xfa, 0x91, 0x57, 0xbd, 0xde, 0x77, 0x3b, 0x3d, 0x47, 0x99, 0x91, 0xbd, 0x4d, 0x07, 0x6b, 0xbe, 0xb1, 0x31, 0x8c, 0x3e, 0xae, 0x12, 0xba, 0xbd, 0x19, 0xbd, 0x2c, 0xbe, 0xbe, 0xb3, 0xc1, 0xbd, 0x91, 0xc0, 0xe3, 0x3d, 0x4b, 0xe8, 0x02, 0xbe, 0x81, 0x94, 0xeb, 0x3d, 0xff, 0xd2, 0x78, 0x3e, 0xa3, 0xcd, 0xc6, 0x3b, 0xe1, 0xa6, 0xd2, 0xbc, 0x29, 0x67, 0xa9, 0xbe, 0xac, 0x8f, 0x75, 0x3e, 0x39, 0x6b, 0xf9, 0xbd, 0xcc, 0xa4, 0x6c, 0x3e, 0xcb, 0xc9, 0x1a, 0x3d, 0x73, 0xe1, 0x8a, 0x3e, 0x43, 0x5b, 0xcf, 0x3d, 0xba, 0x8b, 0x8e, 0xbd, 0x5a, 0x63, 0x78, 0x3d, 0x3b, 0x8e, 0xd1, 0xbc, 0xd4, 0xc4, 0x4b, 0x3d, 0x89, 0x23, 0x72, 0x3b, 0x23, 0x57, 0x99, 0x3e, 0x93, 0x25, 0x2d, 0x3c, 0xff, 0xb3, 0x2e, 0xbe, 0x93, 0x00, 0x51, 0xbe, 0x84, 0x80, 0xb6, 0x3b, 0xc7, 0x1a, 0xb3, 0xbd, 0xca, 0x8e, 0xa7, 0x3e, 0x12, 0x44, 0xd3, 0xbd, 0xa8, 0xef, 0xab, 0xbe, 0x9b, 0x91, 0x5c, 0x3e, 0xb4, 0xc4, 0x0b, 0xbd, 0xa3, 0x1f, 0xba, 0xbd, 0x54, 0x3c, 0xad, 0xbe, 0x55, 0x09, 0xcd, 0x3c, 0xa4, 0xec, 0x10, 0x3e, 0x70, 0x17, 0xce, 0x3e, 0x7b, 0xc6, 0xac, 0x3c, 0x95, 0x6e, 0x0d, 0x3d, 0xe7, 0x81, 0xb7, 0xbe, 0xec, 0x86, 0x83, 0x3e, 0xf8, 0x74, 0xb6, 0xbe, 0x81, 0xbf, 0x1a, 0x3e, 0x6c, 0x02, 0xc5, 0xbe, 0xcd, 0x29, 0x9b, 0x3e, 0x13, 0x7a, 0xea, 0x3d, 0x9e, 0xc6, 0x99, 0xbe, 0xb8, 0xb5, 0x6d, 0x3e, 0x3e, 0x24, 0x2c, 0xbe, 0xe3, 0xbb, 0x73, 0x3e, 0x11, 0x18, 0x25, 0x3e, 0x21, 0xc4, 0x76, 0x3e, 0xa6, 0x34, 0x9e, 0xbe, 0x21, 0xc2, 0x99, 0x3e, 0x93, 0x01, 0x8b, 0x3d, 0x96, 0x71, 0x97, 0xbe, 0xe6, 0x93, 0x1f, 0x3d, 0xc9, 0x5c, 0xb2, 0x3e, 0x45, 0x53, 0x66, 0x3e, 0x28, 0xad, 0xc6, 0x3e, 0xaa, 0x2b, 0x97, 0xbe, 0xdb, 0x70, 0x6f, 0x3d, 0xba, 0xb3, 0x28, 0x3e, 0xf1, 0x8e, 0x93, 0xbe, 0xc4, 0xb4, 0x39, 0x3e, 0x40, 0xb6, 0xba, 0xbe, 0xd4, 0x3c, 0x91, 0x3e, 0xdc, 0xaf, 0x37, 0x3e, 0x6b, 0x94, 0xb8, 0x3e, 0x8b, 0x52, 0x2a, 0xbd, 0xc6, 0xe9, 0xa7, 0x3e, 0xbc, 0x0b, 0x70, 0xbd, 0x5c, 0xdf, 0xee, 0xbc, 0x58, 0x90, 0xc8, 0xbc, 0x94, 0x85, 0xe4, 0xbd, 0x9a, 0x19, 0x31, 0xbe, 0x6d, 0x86, 0xb9, 0xbe, 0xb8, 0xb3, 0x0c, 0x3c, 0x3e, 0x36, 0x9c, 0x3e, 0xd5, 0xc9, 0x2a, 0x3e, 0x43, 0x2a, 0x5e, 0x3e, 0x41, 0x62, 0xa4, 0xbe, 0x41, 0x46, 0x0c, 0xbe, 0x71, 0xfd, 0x8e, 0x3e, 0xa0, 0xce, 0x99, 0xbe, 0x03, 0x39, 0x34, 0xbe, 0x38, 0xcc, 0xdf, 0xbd, 0x21, 0x59, 0x3a, 0xbc, 0xa3, 0xdc, 0x14, 0x3e, 0x31, 0x7c, 0xbb, 0xbe, 0xb8, 0x57, 0x42, 0x3e, 0x0f, 0x5f, 0x01, 0x3e, 0x47, 0x41, 0x01, 0xbe, 0x63, 0x90, 0x05, 0x3f, 0x6e, 0x14, 0xb2, 0xbe, 0xb4, 0xe4, 0x00, 0x3e, 0xe4, 0x11, 0x99, 0xbb, 0x06, 0x15, 0xf4, 0x3d, 0x4d, 0x35, 0x22, 0xbe, 0x45, 0xfb, 0x6d, 0x3e, 0x17, 0x42, 0x3c, 0xbe, 0x71, 0xea, 0xf3, 0xbe, 0xbf, 0x32, 0xbd, 0xbd, 0x57, 0x95, 0xe2, 0x3e, 0x9a, 0xb1, 0xa9, 0x3e, 0xf1, 0x49, 0x24, 0x3c, 0x58, 0x86, 0xc5, 0xbc, 0xed, 0xb0, 0xbd, 0x3c, 0xce, 0xdd, 0x3c, 0xbe, 0x7b, 0x98, 0xeb, 0x3d, 0x54, 0x7d, 0x20, 0xbc, 0xfc, 0x37, 0x55, 0x3e, 0xd4, 0x55, 0x3e, 0x3e, 0xd5, 0x01, 0x09, 0xbe, 0x0d, 0x11, 0x42, 0xbd, 0x80, 0x3d, 0xcf, 0x3e, 0x4f, 0xdf, 0xba, 0x3d, 0xd2, 0x01, 0x02, 0xbf, 0xbd, 0x22, 0x4d, 0xbe, 0xaa, 0x65, 0x31, 0x3e, 0x46, 0x12, 0x7f, 0x3e, 0x31, 0x53, 0xea, 0x3d, 0xff, 0x5f, 0xb2, 0x3d, 0x64, 0x82, 0x91, 0xbe, 0xd4, 0x33, 0x9c, 0x3e, 0x5b, 0x32, 0x3f, 0xbe, 0xa9, 0x5c, 0x85, 0x3e, 0x52, 0x51, 0x85, 0x3e, 0x17, 0x8c, 0x8c, 0xbe, 0x07, 0x50, 0x63, 0xbe, 0x92, 0xfd, 0x5a, 0x3e, 0x64, 0x14, 0x96, 0xbe, 0x2d, 0x49, 0x9b, 0xbe, 0x9a, 0x68, 0xb2, 0xbe, 0x6c, 0x13, 0xa2, 0xbe, 0xfe, 0xfc, 0xb5, 0xbe, 0xfe, 0x1e, 0x90, 0x3e, 0xe0, 0xa7, 0xb1, 0xbe, 0x69, 0x49, 0x2b, 0xbe, 0x7d, 0x46, 0x9f, 0x3e, 0x84, 0xd8, 0x02, 0x3e, 0xe7, 0xe8, 0x16, 0xbe, 0xc0, 0xbb, 0x79, 0xbd, 0x02, 0x29, 0x09, 0xbe, 0xc1, 0x0f, 0x95, 0xbe, 0xce, 0x80, 0xc8, 0xbd, 0x6b, 0x25, 0x89, 0x3e, 0xb8, 0xc4, 0xa0, 0x3e, 0x13, 0x7f, 0x9f, 0xbe, 0xc8, 0xcb, 0x9a, 0xbe, 0x71, 0x8e, 0x68, 0x3d, 0xad, 0xcf, 0x24, 0x3d, 0x33, 0xfd, 0x1a, 0x3d, 0xcf, 0xdc, 0xfb, 0x3d, 0xa9, 0xce, 0xa4, 0x3e, 0xc0, 0xae, 0x58, 0x3e, 0x8f, 0x27, 0xac, 0x3e, 0x12, 0xb1, 0xa2, 0x3e, 0xa5, 0x8b, 0xb3, 0xbe, 0x90, 0x20, 0x78, 0xbe, 0xa9, 0x7a, 0xa7, 0x3d, 0x4c, 0x9f, 0x3e, 0x3d, 0xa6, 0x88, 0xde, 0x39, 0x72, 0x81, 0x8f, 0x3a, 0x89, 0x0c, 0xac, 0xbe, 0x04, 0x4f, 0x82, 0xbd, 0x09, 0xe0, 0x9f, 0x3e, 0xbe, 0xd9, 0x88, 0x3d, 0xca, 0xa2, 0x96, 0x3e, 0xa4, 0xb9, 0x61, 0x3e, 0x17, 0x21, 0x8d, 0x3e, 0x64, 0xaa, 0xa6, 0xbe, 0x92, 0xdc, 0xb9, 0x3d, 0x96, 0x84, 0xb4, 0xbc, 0x63, 0x27, 0x92, 0xbe, 0x2a, 0xa8, 0x5f, 0xbd, 0xa3, 0x06, 0x84, 0xbe, 0x2f, 0x40, 0x93, 0x3e, 0x27, 0x0d, 0xce, 0xbd, 0xc7, 0xd5, 0x11, 0x3e, 0x0d, 0x81, 0x8c, 0x3e, 0xe1, 0x44, 0xbb, 0xbe, 0xea, 0x2f, 0x0f, 0x3e, 0x8e, 0xd0, 0xee, 0xbd, 0x1d, 0xae, 0x40, 0xbe, 0xb3, 0xc4, 0xaf, 0x3d, 0x15, 0x8d, 0xd6, 0xbc, 0x65, 0xc4, 0x24, 0xbe, 0x6d, 0x50, 0xcd, 0x3e, 0x5b, 0xf0, 0x6f, 0xbd, 0x2a, 0x2e, 0x8b, 0x3d, 0x0f, 0xab, 0x25, 0xbe, 0xc7, 0x93, 0x52, 0x3e, 0xdc, 0x53, 0x25, 0xbe, 0x8c, 0xfe, 0x5f, 0x3e, 0xa7, 0xac, 0x1b, 0xbd, 0xb0, 0x26, 0x03, 0xbe, 0x04, 0xf4, 0x0f, 0x3e, 0x80, 0x56, 0x42, 0xbe, 0x57, 0x5b, 0x12, 0x3e, 0xb0, 0x1b, 0x8e, 0xbe, 0x56, 0xee, 0x80, 0xbe, 0x22, 0x39, 0x3d, 0xbe, 0xab, 0x84, 0xaf, 0x3e, 0xd4, 0xca, 0x76, 0xbd, 0x4d, 0x6d, 0x3a, 0x3e, 0x8b, 0x40, 0xa5, 0xbe, 0x39, 0xa3, 0x65, 0xbe, 0xf6, 0xd7, 0xe4, 0x3d, 0x08, 0x8d, 0xf5, 0xbd, 0x1f, 0x60, 0x72, 0xbe, 0xf2, 0x13, 0x7e, 0x3e, 0x30, 0xa6, 0x20, 0xbd, 0x1f, 0x26, 0x37, 0x3d, 0xee, 0x16, 0x04, 0xbe, 0x9a, 0x66, 0x4a, 0xbe, 0xdd, 0xb6, 0x9c, 0x3d, 0x01, 0xa2, 0x22, 0x3e, 0xc0, 0x71, 0xa8, 0x3e, 0x5e, 0xaf, 0x03, 0xbe, 0xf9, 0xa6, 0xd1, 0x3d, 0x57, 0x0d, 0x93, 0xbd, 0x24, 0x5c, 0x3e, 0x3d, 0xf1, 0xf8, 0x20, 0x3d, 0x63, 0x20, 0x75, 0x3d, 0x5a, 0xc2, 0xed, 0xbc, 0xdd, 0x68, 0x75, 0x3e, 0x6c, 0xf8, 0x6e, 0x3d, 0x5b, 0x64, 0x7d, 0x3d, 0xcc, 0x7f, 0x9b, 0xbe, 0x7f, 0x93, 0x9d, 0xbd, 0x72, 0xde, 0x75, 0xbd, 0xba, 0xb5, 0x13, 0x3e, 0xba, 0xb4, 0x66, 0xbe, 0x0c, 0x2f, 0x10, 0x3e, 0x9e, 0xa7, 0xe3, 0xbd, 0xe6, 0x75, 0x07, 0xbe, 0xd7, 0xdc, 0x5a, 0x3e, 0x20, 0xa0, 0x1b, 0xbe, 0xec, 0xcb, 0x3b, 0xbe, 0xe4, 0x0b, 0x48, 0xbe, 0xbf, 0xa4, 0x01, 0x3e, 0x46, 0x50, 0x2c, 0x3e, 0xdb, 0x15, 0xdf, 0xbd, 0x08, 0x2a, 0xea, 0xbd, 0x4a, 0x59, 0x7f, 0x3e, 0xb7, 0x99, 0x69, 0xbe, 0xf6, 0xa6, 0x07, 0xbe, 0x79, 0x31, 0x61, 0x3e, 0x16, 0xc8, 0xa1, 0x3e, 0x32, 0xef, 0xd5, 0x3e, 0xa6, 0x46, 0x23, 0x3e, 0xa7, 0xd1, 0xb7, 0xbe, 0x03, 0x62, 0x56, 0x3d, 0x2c, 0x10, 0x6e, 0xbe, 0x59, 0x13, 0xa4, 0x3d, 0xed, 0x44, 0x30, 0x3e, 0x4c, 0xd1, 0x25, 0x3e, 0x78, 0x9b, 0xa0, 0xbe, 0x58, 0xbf, 0xef, 0xbd, 0x16, 0xb4, 0x5a, 0x3e, 0xfb, 0x35, 0x82, 0x3e, 0xed, 0x74, 0xf1, 0x3c, 0xb2, 0x5f, 0x9d, 0xbe, 0x7b, 0x6b, 0xd4, 0xbd, 0x3a, 0xec, 0x70, 0x3e, 0x60, 0x7e, 0xb5, 0x3e, 0x39, 0x00, 0x9a, 0xbe, 0xf5, 0x69, 0x84, 0x3e, 0x6b, 0x6d, 0x40, 0xbe, 0xeb, 0x1d, 0xa6, 0x3e, 0xaf, 0x37, 0x86, 0xbe, 0xec, 0x0f, 0x22, 0xbe, 0x8d, 0x55, 0x21, 0xbe, 0x1a, 0x2a, 0xdc, 0xbd, 0x11, 0x39, 0xf5, 0x3d, 0x6f, 0x64, 0xa3, 0xbe, 0x1a, 0x7a, 0xad, 0x3e, 0x1d, 0x51, 0xd6, 0x3d, 0x33, 0xb8, 0x04, 0x3e, 0x38, 0xaa, 0x1c, 0x3e, 0x3f, 0xc7, 0x95, 0xbe, 0xb2, 0x22, 0x89, 0x3e, 0xcb, 0xed, 0x72, 0xbd, 0x48, 0x17, 0x6c, 0x3e, 0x60, 0x5c, 0xa6, 0x3d, 0xcb, 0x70, 0x81, 0x3e, 0xef, 0x2a, 0xee, 0x3d, 0xc3, 0x2a, 0x4e, 0xbe, 0x9e, 0xec, 0x59, 0x3e, 0xda, 0xfa, 0x5a, 0x3e, 0x94, 0x70, 0x04, 0xbe, 0x5c, 0x10, 0x54, 0x3e, 0xb6, 0x55, 0x26, 0x3d, 0x08, 0x28, 0x42, 0x3e, 0xb1, 0x4f, 0xf1, 0xbd, 0x9c, 0x12, 0x18, 0xbe, 0x31, 0x9f, 0xc9, 0xbe, 0x4e, 0x60, 0xab, 0x3e, 0x60, 0xca, 0x8d, 0x3e, 0xcf, 0x13, 0xbb, 0xbe, 0x2e, 0x4f, 0x8b, 0x3e, 0x11, 0x01, 0x5d, 0xbe, 0xb6, 0x39, 0x8d, 0x3e, 0xbf, 0x00, 0x89, 0xbc, 0x2f, 0xb5, 0xd2, 0x3c, 0xd2, 0xb9, 0xc7, 0x3e, 0x62, 0x57, 0x83, 0xbe, 0x0c, 0x96, 0x94, 0x3d, 0x75, 0x14, 0xfe, 0xbd, 0x73, 0x9a, 0x8d, 0xbe, 0xb6, 0x6c, 0xab, 0x3d, 0x6d, 0x3b, 0x93, 0x3e, 0x74, 0x07, 0xdb, 0xbe, 0x0c, 0x5e, 0x39, 0xbe, 0xbb, 0x4d, 0xb9, 0x3e, 0xc8, 0x65, 0x20, 0xbd, 0x1f, 0xa3, 0x24, 0xbc, 0xc8, 0x5d, 0x98, 0xbe, 0x3e, 0x8c, 0x74, 0xbd, 0xb8, 0xe9, 0xb1, 0x3e, 0xf0, 0x02, 0x08, 0xbe, 0x35, 0xab, 0x03, 0x3e, 0xb4, 0xb3, 0xd5, 0xbe, 0xc5, 0x5e, 0xee, 0xbc, 0x31, 0xcb, 0x7d, 0x3e, 0x6e, 0x24, 0x9d, 0x3e, 0xc9, 0xe6, 0xac, 0xbe, 0x58, 0x42, 0xec, 0x3d, 0x43, 0xb5, 0x5c, 0x3e, 0x97, 0x34, 0xd2, 0x3d, 0x6a, 0xfb, 0xff, 0xff, 0x04, 0x00, 0x00, 0x00, 0x40, 0x02, 0x00, 0x00, 0x51, 0x52, 0x6d, 0x3d, 0x78, 0x22, 0x85, 0xbe, 0x96, 0xb7, 0x65, 0x3d, 0x7d, 0x75, 0x97, 0xbd, 0xfe, 0xc8, 0x54, 0xbd, 0x5d, 0xc2, 0xa2, 0x3c, 0x6c, 0x5d, 0xb0, 0x3d, 0x9c, 0xa6, 0x00, 0xbe, 0x67, 0x4f, 0xcd, 0xbd, 0x98, 0x8f, 0xe4, 0x3d, 0x02, 0x9a, 0xa6, 0xbd, 0xc5, 0xd9, 0xcd, 0x3d, 0x49, 0xf8, 0xc3, 0xbd, 0x6e, 0xe3, 0xd1, 0x3c, 0xa9, 0x72, 0x3f, 0x3e, 0x1f, 0x49, 0x84, 0x3e, 0xa0, 0x85, 0xdf, 0x3d, 0x78, 0x64, 0xa5, 0xbd, 0x7f, 0x0e, 0x61, 0x3e, 0x74, 0xc9, 0x7d, 0xbe, 0xb2, 0x26, 0x11, 0xbe, 0xe9, 0x37, 0x8b, 0x3e, 0x38, 0xb9, 0x6a, 0xbe, 0x30, 0xcc, 0xd5, 0x3d, 0x2c, 0x1d, 0x40, 0xbe, 0x85, 0x52, 0x76, 0x3e, 0x9d, 0xaf, 0x79, 0xbc, 0x85, 0x2e, 0x11, 0x3e, 0xe4, 0xff, 0x33, 0x3e, 0x4a, 0x3e, 0x6e, 0x3e, 0x34, 0x87, 0x94, 0xbd, 0x37, 0x42, 0x3c, 0x3c, 0x93, 0x1b, 0x63, 0x3e, 0x31, 0x71, 0x4d, 0xbd, 0x5b, 0xe1, 0x27, 0x3e, 0x8e, 0x20, 0x42, 0xbd, 0xce, 0x27, 0x07, 0x3e, 0xe8, 0xb4, 0x51, 0x3e, 0xda, 0xf7, 0x32, 0x3e, 0x49, 0xea, 0x7d, 0xbd, 0xf1, 0xc1, 0xe5, 0xbd, 0x4b, 0xe7, 0xc7, 0x3d, 0x36, 0x05, 0x15, 0x3e, 0x79, 0xd2, 0xbb, 0x3d, 0x1b, 0x73, 0xa3, 0x3d, 0x14, 0x62, 0x86, 0x3e, 0xa7, 0x84, 0x47, 0x3c, 0x89, 0x43, 0x7c, 0x3e, 0x8b, 0xd7, 0x15, 0xbe, 0x52, 0x3e, 0x69, 0xbe, 0x8e, 0xf3, 0x32, 0xbe, 0x27, 0x7f, 0x6c, 0xbe, 0xae, 0x09, 0x48, 0xbe, 0xfa, 0x17, 0x0e, 0x3e, 0x4c, 0x75, 0x2c, 0xbe, 0x20, 0x20, 0x1f, 0xbe, 0x57, 0x9b, 0x05, 0x3e, 0x1d, 0x3d, 0xd6, 0x3d, 0x9f, 0xa2, 0x04, 0xbe, 0x4c, 0x92, 0xa3, 0xbd, 0x2c, 0xb7, 0x4e, 0xbe, 0xcb, 0xa4, 0x0c, 0xbd, 0x43, 0x23, 0xfe, 0x3a, 0x5b, 0x8a, 0x0d, 0xbe, 0x79, 0x50, 0x27, 0xbd, 0xff, 0x63, 0x6b, 0x3d, 0x80, 0x40, 0x57, 0xbe, 0xfc, 0xff, 0x30, 0xbe, 0x4f, 0x64, 0x54, 0xbe, 0x89, 0x5f, 0xa7, 0xbc, 0x40, 0x28, 0x5a, 0xbe, 0x98, 0x29, 0x89, 0xbc, 0x31, 0xde, 0xe1, 0x3d, 0xa1, 0x86, 0x53, 0x3d, 0x7b, 0xad, 0x8c, 0x3e, 0x35, 0x0e, 0x8e, 0x3d, 0xeb, 0x49, 0xdd, 0xbd, 0x4a, 0x6a, 0xee, 0x3d, 0x3b, 0x13, 0xfb, 0xbd, 0x00, 0x1d, 0x1a, 0x3e, 0xea, 0x68, 0x17, 0x3e, 0x69, 0x1b, 0xc2, 0x3d, 0x78, 0x40, 0x86, 0xbd, 0xe5, 0xb9, 0x14, 0xbe, 0xe0, 0x89, 0x23, 0xbc, 0x4e, 0x21, 0x8e, 0x3d, 0x34, 0x4d, 0x4f, 0xbe, 0xef, 0x2a, 0x8e, 0x3d, 0x8c, 0x09, 0x34, 0xbe, 0xe6, 0x56, 0x4f, 0x3e, 0x1f, 0xd1, 0x53, 0xbd, 0xa1, 0x98, 0xa5, 0xbd, 0xca, 0x05, 0x85, 0xbe, 0x68, 0x05, 0x89, 0x3e, 0x7c, 0xef, 0xd8, 0xbd, 0x6d, 0x1b, 0x17, 0x3e, 0xe6, 0xf4, 0x48, 0x3c, 0xed, 0x1d, 0x1a, 0xbe, 0x02, 0x55, 0xcd, 0xbd, 0xfe, 0x29, 0x7b, 0xbe, 0x83, 0x43, 0x07, 0x3d, 0xd5, 0x14, 0x72, 0x3d, 0x4d, 0x0a, 0x82, 0xbd, 0xe1, 0x1b, 0x4a, 0xbe, 0x8d, 0x86, 0x1e, 0xbe, 0x8e, 0xc6, 0x05, 0x3e, 0xc2, 0x4d, 0x48, 0x3e, 0x6b, 0x1e, 0xa8, 0x3d, 0xd9, 0x40, 0x52, 0xbd, 0xaa, 0xf8, 0x11, 0xbe, 0x26, 0x0a, 0xfc, 0x3d, 0x07, 0x5d, 0x15, 0x3c, 0x61, 0x58, 0x24, 0x3d, 0x83, 0x74, 0x1d, 0x3d, 0x74, 0x0d, 0x17, 0x3e, 0xcb, 0xe7, 0x14, 0x3d, 0xa0, 0x12, 0xb2, 0xbd, 0x08, 0x25, 0xec, 0x3c, 0xa2, 0x2f, 0x90, 0xbe, 0x83, 0x9c, 0x4b, 0xbe, 0xee, 0x2f, 0x37, 0x3d, 0xff, 0xcf, 0x21, 0x3d, 0xca, 0xae, 0xea, 0x3e, 0xba, 0x2b, 0xf6, 0x3d, 0xb0, 0x54, 0x98, 0xbe, 0xc2, 0x5b, 0x3f, 0x3e, 0x21, 0x44, 0x04, 0x3e, 0x03, 0x2d, 0x35, 0xbe, 0x60, 0x03, 0x30, 0x3e, 0xaa, 0xa5, 0x65, 0xbd, 0x58, 0xd6, 0x8b, 0x3d, 0x83, 0x73, 0x6f, 0xbd, 0x59, 0x3c, 0x35, 0xbe, 0x00, 0x92, 0x41, 0x3d, 0xb1, 0x31, 0xf5, 0xbd, 0x09, 0xaa, 0x1c, 0xbe, 0xd8, 0xe3, 0x93, 0xbe, 0x30, 0x7a, 0x6d, 0x3e, 0x51, 0xc5, 0x6a, 0x3e, 0xa4, 0x70, 0x79, 0xbc, 0x8c, 0xc5, 0x45, 0x3d, 0xd1, 0x96, 0x23, 0x3e, 0xd3, 0x06, 0x95, 0xbb, 0xdf, 0xb7, 0x81, 0x3d, 0xb6, 0xfd, 0xff, 0xff, 0x04, 0x00, 0x00, 0x00, 0x40, 0x00, 0x00, 0x00, 0xf6, 0x04, 0x9e, 0x3e, 0xd8, 0x9a, 0x08, 0x3f, 0x02, 0x4c, 0x53, 0x3e, 0x4c, 0x72, 0xca, 0xbe, 0xf4, 0x0e, 0x80, 0x3e, 0xd5, 0xb8, 0x1d, 0x3f, 0x1d, 0xdb, 0xf8, 0x3d, 0xd1, 0x73, 0x0d, 0xbf, 0x1c, 0xf1, 0xea, 0x3d, 0xa9, 0xd7, 0xb1, 0x3e, 0xa1, 0xbd, 0x38, 0x3f, 0xcd, 0x6b, 0x0b, 0xbf, 0x5e, 0x9b, 0x26, 0x3f, 0x76, 0xa4, 0xa4, 0xbe, 0x6d, 0x11, 0xd7, 0xbe, 0x7d, 0xcf, 0x08, 0x3f, 0x02, 0xfe, 0xff, 0xff, 0x04, 0x00, 0x00, 0x00, 0x40, 0x00, 0x00, 0x00, 0x00, 0x00, 0x00, 0x00, 0x00, 0x00, 0x00, 0x00, 0x00, 0x00, 0x00, 0x00, 0x00, 0x00, 0x00, 0x00, 0x00, 0x00, 0x00, 0x00, 0x00, 0x00, 0x00, 0x00, 0x00, 0x00, 0x00, 0x00, 0x00, 0x00, 0x00, 0x00, 0x00, 0x00, 0x00, 0x00, 0x00, 0x00, 0x00, 0x00, 0x00, 0x00, 0x00, 0x00, 0x00, 0x00, 0x00, 0x00, 0x00, 0x00, 0x00, 0x00, 0x00, 0x00, 0x00, 0x00, 0x00, 0x00, 0x00, 0x00, 0x00, 0x00, 0x00, 0x00, 0x4e, 0xfe, 0xff, 0xff, 0x04, 0x00, 0x00, 0x00, 0x24, 0x00, 0x00, 0x00, 0x93, 0x6d, 0xcc, 0xbe, 0x76, 0x40, 0x74, 0x3e, 0x9a, 0x98, 0xd6, 0x3e, 0xdd, 0x97, 0x8a, 0x3e, 0x4c, 0xfd, 0x43, 0x3e, 0xb2, 0xcf, 0x0c, 0xbf, 0x2f, 0xa1, 0xc0, 0xbe, 0x7e, 0x47, 0xb6, 0x3e, 0x8f, 0x4e, 0x25, 0xbe, 0x7e, 0xfe, 0xff, 0xff, 0x04, 0x00, 0x00, 0x00, 0x04, 0x00, 0x00, 0x00, 0x00, 0x00, 0x00, 0x00, 0x8e, 0xfe, 0xff, 0xff, 0x04, 0x00, 0x00, 0x00, 0x80, 0x00, 0x00, 0x00, 0x84, 0x9b, 0xc9, 0x3d, 0x51, 0x5b, 0x8c, 0xbd, 0x6b, 0x9c, 0xdd, 0x3d, 0xf6, 0xef, 0xcb, 0x3d, 0xcb, 0xf5, 0xda, 0x3d, 0xb8, 0x45, 0xe2, 0xbc, 0x45, 0x52, 0x86, 0xbd, 0x70, 0xa6, 0x93, 0x3d, 0x53, 0x89, 0x9f, 0x3d, 0xfc, 0x00, 0xd7, 0x3d, 0x1d, 0x1e, 0xcb, 0x3d, 0xe6, 0x7f, 0x6e, 0x3d, 0x77, 0x07, 0x1e, 0xbd, 0xab, 0x3a, 0xc2, 0x3c, 0x22, 0xf6, 0x9a, 0x3d, 0xc0, 0x5c, 0xe9, 0x3d, 0xcb, 0x10, 0x0d, 0xbd, 0x83, 0xb7, 0xe7, 0x3d, 0x33, 0x92, 0xbb, 0x3d, 0xc5, 0x05, 0xa8, 0xbb, 0x44, 0x85, 0xcf, 0xbc, 0xd7, 0x6e, 0x39, 0xbc, 0xf7, 0xb9, 0xc3, 0x3d, 0x84, 0x19, 0x37, 0xbb, 0x43, 0x98, 0x91, 0xbd, 0x01, 0xd0, 0x74, 0x3b, 0x1e, 0xbe, 0x7e, 0xbd, 0xbb, 0xbe, 0x89, 0xbd, 0x30, 0x77, 0xf9, 0xbc, 0x3a, 0x32, 0x01, 0x3c, 0x7e, 0xd6, 0xed, 0xbc, 0xfb, 0xd3, 0x95, 0xbd, 0x1a, 0xff, 0xff, 0xff, 0x04, 0x00, 0x00, 0x00, 0x40, 0x00, 0x00, 0x00, 0x12, 0xe3, 0xf5, 0x3d, 0xe4, 0x18, 0xea, 0x3d, 0xbd, 0x11, 0x56, 0x3c, 0xda, 0x28, 0x08, 0x3e, 0x81, 0xa1, 0xfe, 0x3d, 0x71, 0xbb, 0x03, 0x3e, 0xee, 0x4d, 0xf8, 0x3d, 0x5d, 0x71, 0x87, 0x3d, 0x63, 0xd5, 0xb9, 0x3d, 0x28, 0x38, 0xdb, 0x3d, 0xdc, 0x9f, 0xd9, 0x3d, 0xd7, 0x55, 0xe4, 0x3c, 0x5f, 0xe9, 0xda, 0x3d, 0x3c, 0xaf, 0x1e, 0x3e, 0xc3, 0x0d, 0x8d, 0xbd, 0xfb, 0xdf, 0x86, 0x3c, 0x88, 0xf2, 0xff, 0xff, 0x8c, 0xf2, 0xff, 0xff, 0x0f, 0x00, 0x00, 0x00, 0x4d, 0x4c, 0x49, 0x52, 0x20, 0x43, 0x6f, 0x6e, 0x76, 0x65, 0x72, 0x74, 0x65, 0x64, 0x2e, 0x00, 0x01, 0x00, 0x00, 0x00, 0x14, 0x00, 0x00, 0x00, 0x00, 0x00, 0x0e, 0x00, 0x18, 0x00, 0x14, 0x00, 0x10, 0x00, 0x0c, 0x00, 0x08, 0x00, 0x04, 0x00, 0x0e, 0x00, 0x00, 0x00, 0x14, 0x00, 0x00, 0x00, 0x1c, 0x00, 0x00, 0x00, 0xa4, 0x02, 0x00, 0x00, 0xa8, 0x02, 0x00, 0x00, 0xac, 0x02, 0x00, 0x00, 0x04, 0x00, 0x00, 0x00, 0x6d, 0x61, 0x69, 0x6e, 0x00, 0x00, 0x00, 0x00, 0x09, 0x00, 0x00, 0x00, 0x40, 0x02, 0x00, 0x00, 0xdc, 0x01, 0x00, 0x00, 0x78, 0x01, 0x00, 0x00, 0x38, 0x01, 0x00, 0x00, 0xf0, 0x00, 0x00, 0x00, 0xac, 0x00, 0x00, 0x00, 0x78, 0x00, 0x00, 0x00, 0x40, 0x00, 0x00, 0x00, 0x04, 0x00, 0x00, 0x00, 0x52, 0xfe, 0xff, 0xff, 0x1c, 0x00, 0x00, 0x00, 0x00, 0x00, 0x00, 0x09, 0x1c, 0x00, 0x00, 0x00, 0x20, 0x00, 0x00, 0x00, 0x05, 0x00, 0x00, 0x00, 0x00, 0x00, 0x06, 0x00, 0x08, 0x00, 0x04, 0x00, 0x06, 0x00, 0x00, 0x00, 0x00, 0x00, 0x80, 0x3f, 0x01, 0x00, 0x00, 0x00, 0x14, 0x00, 0x00, 0x00, 0x01, 0x00, 0x00, 0x00, 0x13, 0x00, 0x00, 0x00, 0x8a, 0xfe, 0xff, 0xff, 0x14, 0x00, 0x00, 0x00, 0x00, 0x00, 0x00, 0x08, 0x10, 0x00, 0x00, 0x00, 0x14, 0x00, 0x00, 0x00, 0x04, 0x00, 0x00, 0x00, 0x58, 0xf3, 0xff, 0xff, 0x01, 0x00, 0x00, 0x00, 0x13, 0x00, 0x00, 0x00, 0x03, 0x00, 0x00, 0x00, 0x12, 0x00, 0x00, 0x00, 0x0b, 0x00, 0x00, 0x00, 0x0a, 0x00, 0x00, 0x00, 0xbe, 0xfe, 0xff, 0xff, 0x14, 0x00, 0x00, 0x00, 0x00, 0x00, 0x00, 0x1b, 0x10, 0x00, 0x00, 0x00, 0x14, 0x00, 0x00, 0x00, 0x03, 0x00, 0x00, 0x00, 0x8c, 0xf3, 0xff, 0xff, 0x01, 0x00, 0x00, 0x00, 0x12, 0x00, 0x00, 0x00, 0x02, 0x00, 0x00, 0x00, 0x11, 0x00, 0x00, 0x00, 0x09, 0x00, 0x00, 0x00, 0xee, 0xfe, 0xff, 0xff, 0x14, 0x00, 0x00, 0x00, 0x00, 0x00, 0x00, 0x05, 0x24, 0x00, 0x00, 0x00, 0x28, 0x00, 0x00, 0x00, 0x02, 0x00, 0x00, 0x00, 0x3e, 0xff, 0xff, 0xff, 0x02, 0x00, 0x00, 0x00, 0x02, 0x00, 0x00, 0x00, 0x02, 0x00, 0x00, 0x00, 0x02, 0x00, 0x00, 0x00, 0x00, 0x00, 0x00, 0x01, 0x01, 0x00, 0x00, 0x00, 0x11, 0x00, 0x00, 0x00, 0x01, 0x00, 0x00, 0x00, 0x10, 0x00, 0x00, 0x00, 0x2e, 0xff, 0xff, 0xff, 0x14, 0x00, 0x00, 0x00, 0x00, 0x00, 0x00, 0x01, 0x20, 0x00, 0x00, 0x00, 0x24, 0x00, 0x00, 0x00, 0x01, 0x00, 0x00, 0x00, 0x20, 0xff, 0xff, 0xff, 0x00, 0x00, 0x00, 0x01, 0x01, 0x00, 0x00, 0x00, 0x01, 0x00, 0x00, 0x00, 0x00, 0x00, 0x00, 0x01, 0x01, 0x00, 0x00, 0x00, 0x10, 0x00, 0x00, 0x00, 0x03, 0x00, 0x00, 0x00, 0x0f, 0x00, 0x00, 0x00, 0x08, 0x00, 0x00, 0x00, 0x02, 0x00, 0x00, 0x00, 0x12, 0xff, 0xff, 0xff, 0x10, 0x00, 0x00, 0x00, 0x00, 0x00, 0x00, 0x02, 0x18, 0x00, 0x00, 0x00, 0x1c, 0x00, 0x00, 0x00, 0x04, 0xff, 0xff, 0xff, 0x01, 0x00, 0x00, 0x00, 0x01, 0x00, 0x00, 0x00, 0x01, 0x00, 0x00, 0x00, 0x01, 0x00, 0x00, 0x00, 0x0f, 0x00, 0x00, 0x00, 0x03, 0x00, 0x00, 0x00, 0x0e, 0x00, 0x00, 0x00, 0x07, 0x00, 0x00, 0x00, 0x05, 0x00, 0x00, 0x00, 0xae, 0xff, 0xff, 0xff, 0x24, 0x00, 0x00, 0x00, 0x00, 0x00, 0x00, 0x05, 0x34, 0x00, 0x00, 0x00, 0x38, 0x00, 0x00, 0x00, 0x02, 0x00, 0x00, 0x00, 0x00, 0x00, 0x0e, 0x00, 0x18, 0x00, 0x17, 0x00, 0x10, 0x00, 0x0c, 0x00, 0x08, 0x00, 0x04, 0x00, 0x0e, 0x00, 0x00, 0x00, 0x02, 0x00, 0x00, 0x00, 0x02, 0x00, 0x00, 0x00, 0x02, 0x00, 0x00, 0x00, 0x02, 0x00, 0x00, 0x00, 0x00, 0x00, 0x00, 0x01, 0x01, 0x00, 0x00, 0x00, 0x0e, 0x00, 0x00, 0x00, 0x01, 0x00, 0x00, 0x00, 0x0d, 0x00, 0x00, 0x00, 0x00, 0x00, 0x0e, 0x00, 0x18, 0x00, 0x14, 0x00, 0x10, 0x00, 0x0c, 0x00, 0x0b, 0x00, 0x04, 0x00, 0x0e, 0x00, 0x00, 0x00, 0x20, 0x00, 0x00, 0x00, 0x00, 0x00, 0x00, 0x01, 0x2c, 0x00, 0x00, 0x00, 0x30, 0x00, 0x00, 0x00, 0x01, 0x00, 0x00, 0x00, 0x0c, 0x00, 0x14, 0x00, 0x13, 0x00, 0x0c, 0x00, 0x08, 0x00, 0x07, 0x00, 0x0c, 0x00, 0x00, 0x00, 0x00, 0x00, 0x00, 0x01, 0x01, 0x00, 0x00, 0x00, 0x01, 0x00, 0x00, 0x00, 0x00, 0x00, 0x00, 0x01, 0x01, 0x00, 0x00, 0x00, 0x0d, 0x00, 0x00, 0x00, 0x03, 0x00, 0x00, 0x00, 0x0c, 0x00, 0x00, 0x00, 0x06, 0x00, 0x00, 0x00, 0x01, 0x00, 0x00, 0x00, 0x00, 0x00, 0x0e, 0x00, 0x14, 0x00, 0x00, 0x00, 0x10, 0x00, 0x0c, 0x00, 0x0b, 0x00, 0x04, 0x00, 0x0e, 0x00, 0x00, 0x00, 0x1c, 0x00, 0x00, 0x00, 0x00, 0x00, 0x00, 0x02, 0x24, 0x00, 0x00, 0x00, 0x28, 0x00, 0x00, 0x00, 0x0c, 0x00, 0x10, 0x00, 0x00, 0x00, 0x0c, 0x00, 0x08, 0x00, 0x04, 0x00, 0x0c, 0x00, 0x00, 0x00, 0x01, 0x00, 0x00, 0x00, 0x01, 0x00, 0x00, 0x00, 0x01, 0x00, 0x00, 0x00, 0x01, 0x00, 0x00, 0x00, 0x0c, 0x00, 0x00, 0x00, 0x03, 0x00, 0x00, 0x00, 0x00, 0x00, 0x00, 0x00, 0x04, 0x00, 0x00, 0x00, 0x03, 0x00, 0x00, 0x00, 0x01, 0x00, 0x00, 0x00, 0x14, 0x00, 0x00, 0x00, 0x01, 0x00, 0x00, 0x00, 0x00, 0x00, 0x00, 0x00, 0x15, 0x00, 0x00, 0x00, 0x50, 0x0a, 0x00, 0x00, 0xd4, 0x09, 0x00, 0x00, 0x58, 0x09, 0x00, 0x00, 0xf0, 0x08, 0x00, 0x00, 0x7c, 0x08, 0x00, 0x00, 0x14, 0x08, 0x00, 0x00, 0xa8, 0x07, 0x00, 0x00, 0x34, 0x07, 0x00, 0x00, 0xc8, 0x06, 0x00, 0x00, 0x58, 0x06, 0x00, 0x00, 0xe8, 0x05, 0x00, 0x00, 0x9c, 0x05, 0x00, 0x00, 0x10, 0x05, 0x00, 0x00, 0xd0, 0x03, 0x00, 0x00, 0x58, 0x03, 0x00, 0x00, 0xcc, 0x02, 0x00, 0x00, 0xc4, 0x01, 0x00, 0x00, 0x4c, 0x01, 0x00, 0x00, 0xdc, 0x00, 0x00, 0x00, 0x60, 0x00, 0x00, 0x00, 0x04, 0x00, 0x00, 0x00, 0x1a, 0xf6, 0xff, 0xff, 0x00, 0x00, 0x00, 0x01, 0x14, 0x00, 0x00, 0x00, 0x1c, 0x00, 0x00, 0x00, 0x1c, 0x00, 0x00, 0x00, 0x15, 0x00, 0x00, 0x00, 0x34, 0x00, 0x00, 0x00, 0x02, 0x00, 0x00, 0x00, 0xff, 0xff, 0xff, 0xff, 0x02, 0x00, 0x00, 0x00, 0xfc, 0xf5, 0xff, 0xff, 0x19, 0x00, 0x00, 0x00, 0x53, 0x74, 0x61, 0x74, 0x65, 0x66, 0x75, 0x6c, 0x50, 0x61, 0x72, 0x74, 0x69, 0x74, 0x69, 0x6f, 0x6e, 0x65, 0x64, 0x43, 0x61, 0x6c, 0x6c, 0x3a, 0x30, 0x00, 0x00, 0x00, 0x02, 0x00, 0x00, 0x00, 0x01, 0x00, 0x00, 0x00, 0x02, 0x00, 0x00, 0x00, 0x72, 0xf6, 0xff, 0xff, 0x00, 0x00, 0x00, 0x01, 0x14, 0x00, 0x00, 0x00, 0x1c, 0x00, 0x00, 0x00, 0x1c, 0x00, 0x00, 0x00, 0x14, 0x00, 0x00, 0x00, 0x54, 0x00, 0x00, 0x00, 0x02, 0x00, 0x00, 0x00, 0xff, 0xff, 0xff, 0xff, 0x02, 0x00, 0x00, 0x00, 0x54, 0xf6, 0xff, 0xff, 0x38, 0x00, 0x00, 0x00, 0x73, 0x65, 0x71, 0x75, 0x65, 0x6e, 0x74, 0x69, 0x61, 0x6c, 0x5f, 0x32, 0x2f, 0x64, 0x65, 0x6e, 0x73, 0x65, 0x5f, 0x33, 0x2f, 0x4d, 0x61, 0x74, 0x4d, 0x75, 0x6c, 0x3b, 0x73, 0x65, 0x71, 0x75, 0x65, 0x6e, 0x74, 0x69, 0x61, 0x6c, 0x5f, 0x32, 0x2f, 0x64, 0x65, 0x6e, 0x73, 0x65, 0x5f, 0x33, 0x2f, 0x42, 0x69, 0x61, 0x73, 0x41, 0x64, 0x64, 0x00, 0x00, 0x00, 0x00, 0x02, 0x00, 0x00, 0x00, 0x01, 0x00, 0x00, 0x00, 0x02, 0x00, 0x00, 0x00, 0xea, 0xf6, 0xff, 0xff, 0x00, 0x00, 0x00, 0x01, 0x14, 0x00, 0x00, 0x00, 0x1c, 0x00, 0x00, 0x00, 0x1c, 0x00, 0x00, 0x00, 0x13, 0x00, 0x00, 0x00, 0x48, 0x00, 0x00, 0x00, 0x02, 0x00, 0x00, 0x00, 0xff, 0xff, 0xff, 0xff, 0x20, 0x00, 0x00, 0x00, 0xcc, 0xf6, 0xff, 0xff, 0x2c, 0x00, 0x00, 0x00, 0x73, 0x65, 0x71, 0x75, 0x65, 0x6e, 0x74, 0x69, 0x61, 0x6c, 0x5f, 0x32, 0x2f, 0x67, 0x6c, 0x6f, 0x62, 0x61, 0x6c, 0x5f, 0x61, 0x76, 0x65, 0x72, 0x61, 0x67, 0x65, 0x5f, 0x70, 0x6f, 0x6f, 0x6c, 0x69, 0x6e, 0x67, 0x32, 0x64, 0x5f, 0x32, 0x2f, 0x4d, 0x65, 0x61, 0x6e, 0x00, 0x00, 0x00, 0x00, 0x02, 0x00, 0x00, 0x00, 0x01, 0x00, 0x00, 0x00, 0x20, 0x00, 0x00, 0x00, 0x56, 0xf7, 0xff, 0xff, 0x00, 0x00, 0x00, 0x01, 0x14, 0x00, 0x00, 0x00, 0x24, 0x00, 0x00, 0x00, 0x24, 0x00, 0x00, 0x00, 0x12, 0x00, 0x00, 0x00, 0x48, 0x00, 0x00, 0x00, 0x04, 0x00, 0x00, 0x00, 0xff, 0xff, 0xff, 0xff, 0x38, 0x00, 0x00, 0x00, 0x38, 0x00, 0x00, 0x00, 0x20, 0x00, 0x00, 0x00, 0x40, 0xf7, 0xff, 0xff, 0x24, 0x00, 0x00, 0x00, 0x73, 0x65, 0x71, 0x75, 0x65, 0x6e, 0x74, 0x69, 0x61, 0x6c, 0x5f, 0x32, 0x2f, 0x6d, 0x61, 0x78, 0x5f, 0x70, 0x6f, 0x6f, 0x6c, 0x69, 0x6e, 0x67, 0x32, 0x64, 0x5f, 0x37, 0x2f, 0x4d, 0x61, 0x78, 0x50, 0x6f, 0x6f, 0x6c, 0x00, 0x00, 0x00, 0x00, 0x04, 0x00, 0x00, 0x00, 0x01, 0x00, 0x00, 0x00, 0x38, 0x00, 0x00, 0x00, 0x38, 0x00, 0x00, 0x00, 0x20, 0x00, 0x00, 0x00, 0xca, 0xf7, 0xff, 0xff, 0x00, 0x00, 0x00, 0x01, 0x14, 0x00, 0x00, 0x00, 0x24, 0x00, 0x00, 0x00, 0x24, 0x00, 0x00, 0x00, 0x11, 0x00, 0x00, 0x00, 0xd8, 0x00, 0x00, 0x00, 0x04, 0x00, 0x00, 0x00, 0xff, 0xff, 0xff, 0xff, 0x70, 0x00, 0x00, 0x00, 0x70, 0x00, 0x00, 0x00, 0x20, 0x00, 0x00, 0x00, 0xb4, 0xf7, 0xff, 0xff, 0xb4, 0x00, 0x00, 0x00, 0x73, 0x65, 0x71, 0x75, 0x65, 0x6e, 0x74, 0x69, 0x61, 0x6c, 0x5f, 0x32, 0x2f, 0x73, 0x65, 0x70, 0x61, 0x72, 0x61, 0x62, 0x6c, 0x65, 0x5f, 0x63, 0x6f, 0x6e, 0x76, 0x32, 0x64, 0x5f, 0x33, 0x2f, 0x52, 0x65, 0x6c, 0x75, 0x3b, 0x73, 0x65, 0x71, 0x75, 0x65, 0x6e, 0x74, 0x69, 0x61, 0x6c, 0x5f, 0x32, 0x2f, 0x73, 0x65, 0x70, 0x61, 0x72, 0x61, 0x62, 0x6c, 0x65, 0x5f, 0x63, 0x6f, 0x6e, 0x76, 0x32, 0x64, 0x5f, 0x33, 0x2f, 0x42, 0x69, 0x61, 0x73, 0x41, 0x64, 0x64, 0x3b, 0x73, 0x65, 0x71, 0x75, 0x65, 0x6e, 0x74, 0x69, 0x61, 0x6c, 0x5f, 0x32, 0x2f, 0x73, 0x65, 0x70, 0x61, 0x72, 0x61, 0x62, 0x6c, 0x65, 0x5f, 0x63, 0x6f, 0x6e, 0x76, 0x32, 0x64, 0x5f, 0x33, 0x2f, 0x73, 0x65, 0x70, 0x61, 0x72, 0x61, 0x62, 0x6c, 0x65, 0x5f, 0x63, 0x6f, 0x6e, 0x76, 0x32, 0x64, 0x3b, 0x73, 0x65, 0x71, 0x75, 0x65, 0x6e, 0x74, 0x69, 0x61, 0x6c, 0x5f, 0x32, 0x2f, 0x73, 0x65, 0x70, 0x61, 0x72, 0x61, 0x62, 0x6c, 0x65, 0x5f, 0x63, 0x6f, 0x6e, 0x76, 0x32, 0x64, 0x5f, 0x33, 0x2f, 0x42, 0x69, 0x61, 0x73, 0x41, 0x64, 0x64, 0x2f, 0x52, 0x65, 0x61, 0x64, 0x56, 0x61, 0x72, 0x69, 0x61, 0x62, 0x6c, 0x65, 0x4f, 0x70, 0x00, 0x00, 0x00, 0x00, 0x04, 0x00, 0x00, 0x00, 0x01, 0x00, 0x00, 0x00, 0x70, 0x00, 0x00, 0x00, 0x70, 0x00, 0x00, 0x00, 0x20, 0x00, 0x00, 0x00, 0xce, 0xf8, 0xff, 0xff, 0x00, 0x00, 0x00, 0x01, 0x14, 0x00, 0x00, 0x00, 0x24, 0x00, 0x00, 0x00, 0x24, 0x00, 0x00, 0x00, 0x10, 0x00, 0x00, 0x00, 0x5c, 0x00, 0x00, 0x00, 0x04, 0x00, 0x00, 0x00, 0xff, 0xff, 0xff, 0xff, 0x70, 0x00, 0x00, 0x00, 0x70, 0x00, 0x00, 0x00, 0x10, 0x00, 0x00, 0x00, 0xb8, 0xf8, 0xff, 0xff, 0x3b, 0x00, 0x00, 0x00, 0x73, 0x65, 0x71, 0x75, 0x65, 0x6e, 0x74, 0x69, 0x61, 0x6c, 0x5f, 0x32, 0x2f, 0x73, 0x65, 0x70, 0x61, 0x72, 0x61, 0x62, 0x6c, 0x65, 0x5f, 0x63, 0x6f, 0x6e, 0x76, 0x32, 0x64, 0x5f, 0x33, 0x2f, 0x73, 0x65, 0x70, 0x61, 0x72, 0x61, 0x62, 0x6c, 0x65, 0x5f, 0x63, 0x6f, 0x6e, 0x76, 0x32, 0x64, 0x2f, 0x64, 0x65, 0x70, 0x74, 0x68, 0x77, 0x69, 0x73, 0x65, 0x32, 0x00, 0x04, 0x00, 0x00, 0x00, 0x01, 0x00, 0x00, 0x00, 0x70, 0x00, 0x00, 0x00, 0x70, 0x00, 0x00, 0x00, 0x10, 0x00, 0x00, 0x00, 0x56, 0xf9, 0xff, 0xff, 0x00, 0x00, 0x00, 0x01, 0x14, 0x00, 0x00, 0x00, 0x24, 0x00, 0x00, 0x00, 0x24, 0x00, 0x00, 0x00, 0x0f, 0x00, 0x00, 0x00, 0x48, 0x00, 0x00, 0x00, 0x04, 0x00, 0x00, 0x00, 0xff, 0xff, 0xff, 0xff, 0x70, 0x00, 0x00, 0x00, 0x70, 0x00, 0x00, 0x00, 0x10, 0x00, 0x00, 0x00, 0x40, 0xf9, 0xff, 0xff, 0x24, 0x00, 0x00, 0x00, 0x73, 0x65, 0x71, 0x75, 0x65, 0x6e, 0x74, 0x69, 0x61, 0x6c, 0x5f, 0x32, 0x2f, 0x6d, 0x61, 0x78, 0x5f, 0x70, 0x6f, 0x6f, 0x6c, 0x69, 0x6e, 0x67, 0x32, 0x64, 0x5f, 0x36, 0x2f, 0x4d, 0x61, 0x78, 0x50, 0x6f, 0x6f, 0x6c, 0x00, 0x00, 0x00, 0x00, 0x04, 0x00, 0x00, 0x00, 0x01, 0x00, 0x00, 0x00, 0x70, 0x00, 0x00, 0x00, 0x70, 0x00, 0x00, 0x00, 0x10, 0x00, 0x00, 0x00, 0xca, 0xf9, 0xff, 0xff, 0x00, 0x00, 0x00, 0x01, 0x14, 0x00, 0x00, 0x00, 0x24, 0x00, 0x00, 0x00, 0x24, 0x00, 0x00, 0x00, 0x0e, 0x00, 0x00, 0x00, 0x10, 0x01, 0x00, 0x00, 0x04, 0x00, 0x00, 0x00, 0xff, 0xff, 0xff, 0xff, 0xe0, 0x00, 0x00, 0x00, 0xe0, 0x00, 0x00, 0x00, 0x10, 0x00, 0x00, 0x00, 0xb4, 0xf9, 0xff, 0xff, 0xef, 0x00, 0x00, 0x00, 0x73, 0x65, 0x71, 0x75, 0x65, 0x6e, 0x74, 0x69, 0x61, 0x6c, 0x5f, 0x32, 0x2f, 0x73, 0x65, 0x70, 0x61, 0x72, 0x61, 0x62, 0x6c, 0x65, 0x5f, 0x63, 0x6f, 0x6e, 0x76, 0x32, 0x64, 0x5f, 0x32, 0x2f, 0x52, 0x65, 0x6c, 0x75, 0x3b, 0x73, 0x65, 0x71, 0x75, 0x65, 0x6e, 0x74, 0x69, 0x61, 0x6c, 0x5f, 0x32, 0x2f, 0x73, 0x65, 0x70, 0x61, 0x72, 0x61, 0x62, 0x6c, 0x65, 0x5f, 0x63, 0x6f, 0x6e, 0x76, 0x32, 0x64, 0x5f, 0x32, 0x2f, 0x42, 0x69, 0x61, 0x73, 0x41, 0x64, 0x64, 0x3b, 0x73, 0x65, 0x71, 0x75, 0x65, 0x6e, 0x74, 0x69, 0x61, 0x6c, 0x5f, 0x32, 0x2f, 0x73, 0x65, 0x70, 0x61, 0x72, 0x61, 0x62, 0x6c, 0x65, 0x5f, 0x63, 0x6f, 0x6e, 0x76, 0x32, 0x64, 0x5f, 0x33, 0x2f, 0x73, 0x65, 0x70, 0x61, 0x72, 0x61, 0x62, 0x6c, 0x65, 0x5f, 0x63, 0x6f, 0x6e, 0x76, 0x32, 0x64, 0x2f, 0x64, 0x65, 0x70, 0x74, 0x68, 0x77, 0x69, 0x73, 0x65, 0x3b, 0x73, 0x65, 0x71, 0x75, 0x65, 0x6e, 0x74, 0x69, 0x61, 0x6c, 0x5f, 0x32, 0x2f, 0x73, 0x65, 0x70, 0x61, 0x72, 0x61, 0x62, 0x6c, 0x65, 0x5f, 0x63, 0x6f, 0x6e, 0x76, 0x32, 0x64, 0x5f, 0x32, 0x2f, 0x73, 0x65, 0x70, 0x61, 0x72, 0x61, 0x62, 0x6c, 0x65, 0x5f, 0x63, 0x6f, 0x6e, 0x76, 0x32, 0x64, 0x3b, 0x73, 0x65, 0x71, 0x75, 0x65, 0x6e, 0x74, 0x69, 0x61, 0x6c, 0x5f, 0x32, 0x2f, 0x73, 0x65, 0x70, 0x61, 0x72, 0x61, 0x62, 0x6c, 0x65, 0x5f, 0x63, 0x6f, 0x6e, 0x76, 0x32, 0x64, 0x5f, 0x32, 0x2f, 0x42, 0x69, 0x61, 0x73, 0x41, 0x64, 0x64, 0x2f, 0x52, 0x65, 0x61, 0x64, 0x56, 0x61, 0x72, 0x69, 0x61, 0x62, 0x6c, 0x65, 0x4f, 0x70, 0x00, 0x04, 0x00, 0x00, 0x00, 0x01, 0x00, 0x00, 0x00, 0xe0, 0x00, 0x00, 0x00, 0xe0, 0x00, 0x00, 0x00, 0x10, 0x00, 0x00, 0x00, 0x06, 0xfb, 0xff, 0xff, 0x00, 0x00, 0x00, 0x01, 0x14, 0x00, 0x00, 0x00, 0x24, 0x00, 0x00, 0x00, 0x24, 0x00, 0x00, 0x00, 0x0d, 0x00, 0x00, 0x00, 0x5c, 0x00, 0x00, 0x00, 0x04, 0x00, 0x00, 0x00, 0xff, 0xff, 0xff, 0xff, 0xe0, 0x00, 0x00, 0x00, 0xe0, 0x00, 0x00, 0x00, 0x01, 0x00, 0x00, 0x00, 0xf0, 0xfa, 0xff, 0xff, 0x3b, 0x00, 0x00, 0x00, 0x73, 0x65, 0x71, 0x75, 0x65, 0x6e, 0x74, 0x69, 0x61, 0x6c, 0x5f, 0x32, 0x2f, 0x73, 0x65, 0x70, 0x61, 0x72, 0x61, 0x62, 0x6c, 0x65, 0x5f, 0x63, 0x6f, 0x6e, 0x76, 0x32, 0x64, 0x5f, 0x32, 0x2f, 0x73, 0x65, 0x70, 0x61, 0x72, 0x61, 0x62, 0x6c, 0x65, 0x5f, 0x63, 0x6f, 0x6e, 0x76, 0x32, 0x64, 0x2f, 0x64, 0x65, 0x70, 0x74, 0x68, 0x77, 0x69, 0x73, 0x65, 0x32, 0x00, 0x04, 0x00, 0x00, 0x00, 0x01, 0x00, 0x00, 0x00, 0xe0, 0x00, 0x00, 0x00, 0xe0, 0x00, 0x00, 0x00, 0x01, 0x00, 0x00, 0x00, 0x06, 0xfc, 0xff, 0xff, 0x00, 0x00, 0x00, 0x01, 0x10, 0x00, 0x00, 0x00, 0x10, 0x00, 0x00, 0x00, 0x0c, 0x00, 0x00, 0x00, 0x28, 0x00, 0x00, 0x00, 0x60, 0xfb, 0xff, 0xff, 0x1b, 0x00, 0x00, 0x00, 0x73, 0x65, 0x71, 0x75, 0x65, 0x6e, 0x74, 0x69, 0x61, 0x6c, 0x5f, 0x32, 0x2f, 0x64, 0x65, 0x6e, 0x73, 0x65, 0x5f, 0x33, 0x2f, 0x4d, 0x61, 0x74, 0x4d, 0x75, 0x6c, 0x00, 0x02, 0x00, 0x00, 0x00, 0x02, 0x00, 0x00, 0x00, 0x20, 0x00, 0x00, 0x00, 0x4e, 0xfc, 0xff, 0xff, 0x00, 0x00, 0x00, 0x01, 0x10, 0x00, 0x00, 0x00, 0x10, 0x00, 0x00, 0x00, 0x0b, 0x00, 0x00, 0x00, 0x38, 0x00, 0x00, 0x00, 0xa8, 0xfb, 0xff, 0xff, 0x2b, 0x00, 0x00, 0x00, 0x73, 0x65, 0x71, 0x75, 0x65, 0x6e, 0x74, 0x69, 0x61, 0x6c, 0x5f, 0x32, 0x2f, 0x64, 0x65, 0x6e, 0x73, 0x65, 0x5f, 0x33, 0x2f, 0x42, 0x69, 0x61, 0x73, 0x41, 0x64, 0x64, 0x2f, 0x52, 0x65, 0x61, 0x64, 0x56, 0x61, 0x72, 0x69, 0x61, 0x62, 0x6c, 0x65, 0x4f, 0x70, 0x00, 0x01, 0x00, 0x00, 0x00, 0x02, 0x00, 0x00, 0x00, 0x00, 0x00, 0x16, 0x00, 0x1c, 0x00, 0x18, 0x00, 0x17, 0x00, 0x10, 0x00, 0x0c, 0x00, 0x08, 0x00, 0x00, 0x00, 0x00, 0x00, 0x00, 0x00, 0x07, 0x00, 0x16, 0x00, 0x00, 0x00, 0x00, 0x00, 0x00, 0x01, 0x14, 0x00, 0x00, 0x00, 0x14, 0x00, 0x00, 0x00, 0x0a, 0x00, 0x00, 0x00, 0x00, 0x00, 0x00, 0x02, 0x4c, 0x00, 0x00, 0x00, 0x18, 0xfc, 0xff, 0xff, 0x3e, 0x00, 0x00, 0x00, 0x73, 0x65, 0x71, 0x75, 0x65, 0x6e, 0x74, 0x69, 0x61, 0x6c, 0x5f, 0x32, 0x2f, 0x67, 0x6c, 0x6f, 0x62, 0x61, 0x6c, 0x5f, 0x61, 0x76, 0x65, 0x72, 0x61, 0x67, 0x65, 0x5f, 0x70, 0x6f, 0x6f, 0x6c, 0x69, 0x6e, 0x67, 0x32, 0x64, 0x5f, 0x32, 0x2f, 0x4d, 0x65, 0x61, 0x6e, 0x2f, 0x72, 0x65, 0x64, 0x75, 0x63, 0x74, 0x69, 0x6f, 0x6e, 0x5f, 0x69, 0x6e, 0x64, 0x69, 0x63, 0x65, 0x73, 0x00, 0x00, 0x01, 0x00, 0x00, 0x00, 0x02, 0x00, 0x00, 0x00, 0x26, 0xfd, 0xff, 0xff, 0x00, 0x00, 0x00, 0x01, 0x10, 0x00, 0x00, 0x00, 0x10, 0x00, 0x00, 0x00, 0x09, 0x00, 0x00, 0x00, 0x40, 0x00, 0x00, 0x00, 0x80, 0xfc, 0xff, 0xff, 0x30, 0x00, 0x00, 0x00, 0x73, 0x65, 0x71, 0x75, 0x65, 0x6e, 0x74, 0x69, 0x61, 0x6c, 0x5f, 0x32, 0x2f, 0x73, 0x65, 0x70, 0x61, 0x72, 0x61, 0x62, 0x6c, 0x65, 0x5f, 0x63, 0x6f, 0x6e, 0x76, 0x32, 0x64, 0x5f, 0x33, 0x2f, 0x73, 0x65, 0x70, 0x61, 0x72, 0x61, 0x62, 0x6c, 0x65, 0x5f, 0x63, 0x6f, 0x6e, 0x76, 0x32, 0x64, 0x00, 0x00, 0x00, 0x00, 0x04, 0x00, 0x00, 0x00, 0x20, 0x00, 0x00, 0x00, 0x01, 0x00, 0x00, 0x00, 0x01, 0x00, 0x00, 0x00, 0x10, 0x00, 0x00, 0x00, 0x8e, 0xfd, 0xff, 0xff, 0x00, 0x00, 0x00, 0x01, 0x10, 0x00, 0x00, 0x00, 0x10, 0x00, 0x00, 0x00, 0x08, 0x00, 0x00, 0x00, 0x48, 0x00, 0x00, 0x00, 0xe8, 0xfc, 0xff, 0xff, 0x3b, 0x00, 0x00, 0x00, 0x73, 0x65, 0x71, 0x75, 0x65, 0x6e, 0x74, 0x69, 0x61, 0x6c, 0x5f, 0x32, 0x2f, 0x73, 0x65, 0x70, 0x61, 0x72, 0x61, 0x62, 0x6c, 0x65, 0x5f, 0x63, 0x6f, 0x6e, 0x76, 0x32, 0x64, 0x5f, 0x33, 0x2f, 0x73, 0x65, 0x70, 0x61, 0x72, 0x61, 0x62, 0x6c, 0x65, 0x5f, 0x63, 0x6f, 0x6e, 0x76, 0x32, 0x64, 0x2f, 0x64, 0x65, 0x70, 0x74, 0x68, 0x77, 0x69, 0x73, 0x65, 0x31, 0x00, 0x04, 0x00, 0x00, 0x00, 0x01, 0x00, 0x00, 0x00, 0x03, 0x00, 0x00, 0x00, 0x03, 0x00, 0x00, 0x00, 0x10, 0x00, 0x00, 0x00, 0xfe, 0xfd, 0xff, 0xff, 0x00, 0x00, 0x00, 0x01, 0x10, 0x00, 0x00, 0x00, 0x10, 0x00, 0x00, 0x00, 0x07, 0x00, 0x00, 0x00, 0x40, 0x00, 0x00, 0x00, 0x58, 0xfd, 0xff, 0xff, 0x30, 0x00, 0x00, 0x00, 0x73, 0x65, 0x71, 0x75, 0x65, 0x6e, 0x74, 0x69, 0x61, 0x6c, 0x5f, 0x32, 0x2f, 0x73, 0x65, 0x70, 0x61, 0x72, 0x61, 0x62, 0x6c, 0x65, 0x5f, 0x63, 0x6f, 0x6e, 0x76, 0x32, 0x64, 0x5f, 0x32, 0x2f, 0x73, 0x65, 0x70, 0x61, 0x72, 0x61, 0x62, 0x6c, 0x65, 0x5f, 0x63, 0x6f, 0x6e, 0x76, 0x32, 0x64, 0x00, 0x00, 0x00, 0x00, 0x04, 0x00, 0x00, 0x00, 0x10, 0x00, 0x00, 0x00, 0x01, 0x00, 0x00, 0x00, 0x01, 0x00, 0x00, 0x00, 0x01, 0x00, 0x00, 0x00, 0x66, 0xfe, 0xff, 0xff, 0x00, 0x00, 0x00, 0x01, 0x10, 0x00, 0x00, 0x00, 0x10, 0x00, 0x00, 0x00, 0x06, 0x00, 0x00, 0x00, 0x48, 0x00, 0x00, 0x00, 0xc0, 0xfd, 0xff, 0xff, 0x3a, 0x00, 0x00, 0x00, 0x73, 0x65, 0x71, 0x75, 0x65, 0x6e, 0x74, 0x69, 0x61, 0x6c, 0x5f, 0x32, 0x2f, 0x73, 0x65, 0x70, 0x61, 0x72, 0x61, 0x62, 0x6c, 0x65, 0x5f, 0x63, 0x6f, 0x6e, 0x76, 0x32, 0x64, 0x5f, 0x33, 0x2f, 0x73, 0x65, 0x70, 0x61, 0x72, 0x61, 0x62, 0x6c, 0x65, 0x5f, 0x63, 0x6f, 0x6e, 0x76, 0x32, 0x64, 0x2f, 0x64, 0x65, 0x70, 0x74, 0x68, 0x77, 0x69, 0x73, 0x65, 0x00, 0x00, 0x01, 0x00, 0x00, 0x00, 0x10, 0x00, 0x00, 0x00, 0xca, 0xfe, 0xff, 0xff, 0x00, 0x00, 0x00, 0x01, 0x10, 0x00, 0x00, 0x00, 0x10, 0x00, 0x00, 0x00, 0x05, 0x00, 0x00, 0x00, 0x48, 0x00, 0x00, 0x00, 0x24, 0xfe, 0xff, 0xff, 0x3b, 0x00, 0x00, 0x00, 0x73, 0x65, 0x71, 0x75, 0x65, 0x6e, 0x74, 0x69, 0x61, 0x6c, 0x5f, 0x32, 0x2f, 0x73, 0x65, 0x70, 0x61, 0x72, 0x61, 0x62, 0x6c, 0x65, 0x5f, 0x63, 0x6f, 0x6e, 0x76, 0x32, 0x64, 0x5f, 0x32, 0x2f, 0x73, 0x65, 0x70, 0x61, 0x72, 0x61, 0x62, 0x6c, 0x65, 0x5f, 0x63, 0x6f, 0x6e, 0x76, 0x32, 0x64, 0x2f, 0x64, 0x65, 0x70, 0x74, 0x68, 0x77, 0x69, 0x73, 0x65, 0x31, 0x00, 0x04, 0x00, 0x00, 0x00, 0x01, 0x00, 0x00, 0x00, 0x03, 0x00, 0x00, 0x00, 0x03, 0x00, 0x00, 0x00, 0x01, 0x00, 0x00, 0x00, 0x3a, 0xff, 0xff, 0xff, 0x00, 0x00, 0x00, 0x01, 0x10, 0x00, 0x00, 0x00, 0x10, 0x00, 0x00, 0x00, 0x04, 0x00, 0x00, 0x00, 0x48, 0x00, 0x00, 0x00, 0x94, 0xfe, 0xff, 0xff, 0x3a, 0x00, 0x00, 0x00, 0x73, 0x65, 0x71, 0x75, 0x65, 0x6e, 0x74, 0x69, 0x61, 0x6c, 0x5f, 0x32, 0x2f, 0x73, 0x65, 0x70, 0x61, 0x72, 0x61, 0x62, 0x6c, 0x65, 0x5f, 0x63, 0x6f, 0x6e, 0x76, 0x32, 0x64, 0x5f, 0x32, 0x2f, 0x73, 0x65, 0x70, 0x61, 0x72, 0x61, 0x62, 0x6c, 0x65, 0x5f, 0x63, 0x6f, 0x6e, 0x76, 0x32, 0x64, 0x2f, 0x64, 0x65, 0x70, 0x74, 0x68, 0x77, 0x69, 0x73, 0x65, 0x00, 0x00, 0x01, 0x00, 0x00, 0x00, 0x01, 0x00, 0x00, 0x00, 0x9e, 0xff, 0xff, 0xff, 0x00, 0x00, 0x00, 0x01, 0x10, 0x00, 0x00, 0x00, 0x10, 0x00, 0x00, 0x00, 0x03, 0x00, 0x00, 0x00, 0x44, 0x00, 0x00, 0x00, 0xf8, 0xfe, 0xff, 0xff, 0x36, 0x00, 0x00, 0x00, 0x73, 0x65, 0x71, 0x75, 0x65, 0x6e, 0x74, 0x69, 0x61, 0x6c, 0x5f, 0x32, 0x2f, 0x73, 0x65, 0x70, 0x61, 0x72, 0x61, 0x62, 0x6c, 0x65, 0x5f, 0x63, 0x6f, 0x6e, 0x76, 0x32, 0x64, 0x5f, 0x33, 0x2f, 0x42, 0x69, 0x61, 0x73, 0x41, 0x64, 0x64, 0x2f, 0x52, 0x65, 0x61, 0x64, 0x56, 0x61, 0x72, 0x69, 0x61, 0x62, 0x6c, 0x65, 0x4f, 0x70, 0x00, 0x00, 0x01, 0x00, 0x00, 0x00, 0x20, 0x00, 0x00, 0x00, 0x00, 0x00, 0x16, 0x00, 0x18, 0x00, 0x14, 0x00, 0x00, 0x00, 0x10, 0x00, 0x0c, 0x00, 0x08, 0x00, 0x00, 0x00, 0x00, 0x00, 0x00, 0x00, 0x07, 0x00, 0x16, 0x00, 0x00, 0x00, 0x00, 0x00, 0x00, 0x01, 0x10, 0x00, 0x00, 0x00, 0x10, 0x00, 0x00, 0x00, 0x02, 0x00, 0x00, 0x00, 0x44, 0x00, 0x00, 0x00, 0x70, 0xff, 0xff, 0xff, 0x36, 0x00, 0x00, 0x00, 0x73, 0x65, 0x71, 0x75, 0x65, 0x6e, 0x74, 0x69, 0x61, 0x6c, 0x5f, 0x32, 0x2f, 0x73, 0x65, 0x70, 0x61, 0x72, 0x61, 0x62, 0x6c, 0x65, 0x5f, 0x63, 0x6f, 0x6e, 0x76, 0x32, 0x64, 0x5f, 0x32, 0x2f, 0x42, 0x69, 0x61, 0x73, 0x41, 0x64, 0x64, 0x2f, 0x52, 0x65, 0x61, 0x64, 0x56, 0x61, 0x72, 0x69, 0x61, 0x62, 0x6c, 0x65, 0x4f, 0x70, 0x00, 0x00, 0x01, 0x00, 0x00, 0x00, 0x10, 0x00, 0x00, 0x00, 0x00, 0x00, 0x16, 0x00, 0x1c, 0x00, 0x18, 0x00, 0x00, 0x00, 0x14, 0x00, 0x10, 0x00, 0x0c, 0x00, 0x00, 0x00, 0x00, 0x00, 0x08, 0x00, 0x07, 0x00, 0x16, 0x00, 0x00, 0x00, 0x00, 0x00, 0x00, 0x01, 0x14, 0x00, 0x00, 0x00, 0x28, 0x00, 0x00, 0x00, 0x28, 0x00, 0x00, 0x00, 0x01, 0x00, 0x00, 0x00, 0x50, 0x00, 0x00, 0x00, 0x04, 0x00, 0x00, 0x00, 0xff, 0xff, 0xff, 0xff, 0xe0, 0x00, 0x00, 0x00, 0xe0, 0x00, 0x00, 0x00, 0x01, 0x00, 0x00, 0x00, 0x04, 0x00, 0x04, 0x00, 0x04, 0x00, 0x00, 0x00, 0x2a, 0x00, 0x00, 0x00, 0x73, 0x65, 0x72, 0x76, 0x69, 0x6e, 0x67, 0x5f, 0x64, 0x65, 0x66, 0x61, 0x75, 0x6c, 0x74, 0x5f, 0x73, 0x65, 0x70, 0x61, 0x72, 0x61, 0x62, 0x6c, 0x65, 0x5f, 0x63, 0x6f, 0x6e, 0x76, 0x32, 0x64, 0x5f, 0x32, 0x5f, 0x69, 0x6e, 0x70, 0x75, 0x74, 0x3a, 0x30, 0x00, 0x00, 0x04, 0x00, 0x00, 0x00, 0x01, 0x00, 0x00, 0x00, 0xe0, 0x00, 0x00, 0x00, 0xe0, 0x00, 0x00, 0x00, 0x01, 0x00, 0x00, 0x00, 0x06, 0x00, 0x00, 0x00, 0x60, 0x00, 0x00, 0x00, 0x44, 0x00, 0x00, 0x00, 0x34, 0x00, 0x00, 0x00, 0x24, 0x00, 0x00, 0x00, 0x14, 0x00, 0x00, 0x00, 0x04, 0x00, 0x00, 0x00, 0xc4, 0xff, 0xff, 0xff, 0x19, 0x00, 0x00, 0x00, 0x00, 0x00, 0x00, 0x19, 0xd0, 0xff, 0xff, 0xff, 0x09, 0x00, 0x00, 0x00, 0x00, 0x00, 0x00, 0x09, 0xdc, 0xff, 0xff, 0xff, 0x28, 0x00, 0x00, 0x00, 0x00, 0x00, 0x00, 0x28, 0xe8, 0xff, 0xff, 0xff, 0x11, 0x00, 0x00, 0x00, 0x00, 0x00, 0x00, 0x11, 0xf4, 0xff, 0xff, 0xff, 0x03, 0x00, 0x00, 0x00, 0x00, 0x00, 0x00, 0x03, 0x0c, 0x00, 0x0c, 0x00, 0x0b, 0x00, 0x00, 0x00, 0x00, 0x00, 0x04, 0x00, 0x0c, 0x00, 0x00, 0x00, 0x04, 0x00, 0x00, 0x00, 0x00, 0x00, 0x00, 0x04
};
unsigned int model_data_len = 7576;